TRT-7000-EntropyCalibration2
input_1: 3c010a14
conv1/convolution: 3c9be116
conv1/BiasAdd: 3c9be116
bn_conv1/batchnorm/mul_1: 3d36876d
bn_conv1/batchnorm/add_1: 3cb8d76d
activation_1/Relu: 3d145f0b
block_1a_conv_1/convolution: 3e023fda
block_1a_conv_1/BiasAdd: 3e023fda
block_1a_bn_1/batchnorm/mul_1: 3db08673
block_1a_bn_1/batchnorm/add_1: 3dac6120
block_1a_relu_1/Relu: 3d0787fd
block_1a_conv_2/convolution: 3ddba4de
block_1a_conv_2/BiasAdd: 3ddba4de
block_1a_bn_2/batchnorm/mul_1: 3e1d2186
block_1a_bn_2/batchnorm/add_1: 3e11e825
block_1a_conv_shortcut/convolution: 3c671f6e
block_1a_conv_shortcut/BiasAdd: 3c671f6e
block_1a_bn_shortcut/batchnorm/mul_1: 3cdc2b6d
block_1a_bn_shortcut/batchnorm/add_1: 3d1ce102
add_1/add: 3dfaeb4b
block_1a_relu/Relu: 3d9f79f8
block_2a_conv_1/convolution: 3e0cbdd9
block_2a_conv_1/BiasAdd: 3e0cbdd9
block_2a_bn_1/batchnorm/mul_1: 3db640d6
block_2a_bn_1/batchnorm/add_1: 3dc4a809
block_2a_relu_1/Relu: 3d1dd983
block_2a_conv_2/convolution: 3dbe77c2
block_2a_conv_2/BiasAdd: 3dbe77c2
block_2a_bn_2/batchnorm/mul_1: 3df1eaff
block_2a_bn_2/batchnorm/add_1: 3d9a46e9
block_2a_conv_shortcut/convolution: 3d0e31a7
block_2a_conv_shortcut/BiasAdd: 3d0e31a7
block_2a_bn_shortcut/batchnorm/mul_1: 3d95ede3
block_2a_bn_shortcut/batchnorm/add_1: 3cbbc24b
add_2/add: 3df027ab
block_2a_relu/Relu: 3da1444e
block_3a_conv_1/convolution: 3ddeb4f4
block_3a_conv_1/BiasAdd: 3ddeb4f4
block_3a_bn_1/batchnorm/mul_1: 3dbfc614
block_3a_bn_1/batchnorm/add_1: 3d5bbd87
block_3a_relu_1/Relu: 3d2c00b7
block_3a_conv_2/convolution: 3da37150
block_3a_conv_2/BiasAdd: 3da37150
block_3a_bn_2/batchnorm/mul_1: 3dc436df
block_3a_bn_2/batchnorm/add_1: 3dd807e4
block_3a_conv_shortcut/convolution: 3cf5a601
block_3a_conv_shortcut/BiasAdd: 3cf5a601
block_3a_bn_shortcut/batchnorm/mul_1: 3d53037c
block_3a_bn_shortcut/batchnorm/add_1: 3cc15b69
add_3/add: 3dba664e
block_3a_relu/Relu: 3ddf1e6d
block_4a_conv_1/convolution: 3e17c7d1
block_4a_conv_1/BiasAdd: 3e17c7d1
block_4a_bn_1/batchnorm/mul_1: 3d931fec
block_4a_bn_1/batchnorm/add_1: 3d326754
block_4a_relu_1/Relu: 3d70bbe3
block_4a_conv_2/convolution: 3e7e6b7a
block_4a_conv_2/BiasAdd: 3e7e6b7a
block_4a_bn_2/batchnorm/mul_1: 3e185001
block_4a_bn_2/batchnorm/add_1: 3e064fd7
block_4a_conv_shortcut/convolution: 3e224dd1
block_4a_conv_shortcut/BiasAdd: 3e224dd1
block_4a_bn_shortcut/batchnorm/mul_1: 3d8b162e
block_4a_bn_shortcut/batchnorm/add_1: 3c91af1c
add_4/add: 3e073336
block_4a_relu/Relu: 3e3ac4eb
output_bbox/convolution: 3ca5e3bb
output_bbox/BiasAdd: 3caa0972
output_cov/convolution: 3e2a96f1
output_cov/BiasAdd: 3e3d6c4b
output_cov/Sigmoid: 3b7dc080
